f888
00af
f9ec
00f4
fc75
031d
0775
03e4
0308
ff32
fed9
019d
06d0
fc9d
0119
0699
00f8
fb99
0387
0180
04ab
fa42
f83f
fd51
fe3d
04dc
f981
f989
fa97
0696
ff18
032a
fd9c
00f2
06ae
019e
f7fd
032a
fe81
f8b6
fdbe
0556
fd98
f9c5
fd11
02e4
f9ed
050c
fed4
fb99
043a
fce0
fa00
008b
f86c
0637
fa21
0671
014d
0318
fc45
0620
f9f5
f920
0089
f811
f65a
fc3d
046a
0054
011a
fa6e
f665
f857
f79e
ff35
034c
fe0e
f9fb
030e
b609
b554
b83d
c1c4
b489
c4ec
bdbf
b784
b957
bbb8
b3f7
b6cd
b6d3
baa8
ae46
b55d
fc8b
fefb
fa8b
059b
0542
fcc1
0646
f8cf
fcba
0750
f8e4
0378
056b
02e8
0226
fac0
27af
2027
16eb
db3c
2000
c1e7
f6ed
3261
179d
2fa2
2fb4
255a
1dfd
2801
27fd
2c53
